{"_comment": "GENERATED by scripts/gen_tool_prompt_vectors.py — a TRIMMED BPE vocab, sufficient by construction to tokenize every canonical_text in tool_prompt_cases.json exactly as the full vocab would. Token ids are the model's real ids; merges keep their relative order (only the ordering matters to the merge loop).", "model_gguf": "DeepSeek-V4-Flash-Vision-Exp-UD-Q2_K_XL-00001-of-00003.gguf", "vocab_size": 129280, "bos_token_id": 0, "eos_token_id": 1, "pre": "joyai-llm", "tokens": {"0": "<｜begin▁of▁sentence｜>", "1": "<｜end▁of▁sentence｜>", "3": "!", "4": "\"", "5": "#", "6": "$", "7": "%", "8": "&", "9": "'", "10": "(", "11": ")", "12": "*", "13": "+", "14": ",", "15": "-", "16": ".", "17": "/", "18": "0", "19": "1", "20": "2", "21": "3", "22": "4", "23": "5", "24": "6", "25": "7", "26": "8", "27": "9", "28": ":", "29": ";", "30": "<", "31": "=", "32": ">", "33": "?", "34": "@", "35": "A", "36": "B", "37": "C", "38": "D", "39": "E", "40": "F", "41": "G", "42": "H", "43": "I", "44": "J", "45": "K", "46": "L", "47": "M", "48": "N", "49": "O", "50": "P", "51": "Q", "52": "R", "53": "S", "54": "T", "55": "U", "56": "V", "57": "W", "58": "X", "59": "Y", "60": "Z", "61": "[", "62": "\\", "63": "]", "64": "^", "65": "_", "66": "`", "67": "a", "68": "b", "69": "c", "70": "d", "71": "e", "72": "f", "73": "g", "74": "h", "75": "i", "76": "j", "77": "k", "78": "l", "79": "m", "80": "n", "81": "o", "82": "p", "83": "q", "84": "r", "85": "s", "86": "t", "87": "u", "88": "v", "89": "w", "90": "x", "91": "y", "92": "z", "93": "{", "94": "|", "95": "}", "96": "~", "124": "½", "161": "â", "174": "ï", "201": "Ċ", "223": "Ġ", "225": "Ģ", "226": "ģ", "245": "Ķ", "247": "ĸ", "253": "ľ", "259": "Ġt", "260": "Ġa", "261": "in", "263": "he", "264": "er", "265": "on", "266": "re", "267": "en", "268": "at", "269": "Ġs", "270": "Ġthe", "271": "ĊĊ", "272": "or", "273": "es", "274": "Ġc", "276": "an", "277": "Ġo", "278": "is", "279": "it", "280": "Ġp", "281": "Ġw", "282": "al", "283": "Ġd", "284": "ed", "285": "Ġf", "287": "ar", "288": "ing", "289": "nd", "291": "Ġb", "292": "Ġm", "293": "ou", "294": "Ġof", "295": "Ġin", "296": "ion", "297": "ic", "300": "âĢ", "302": "le", "304": "Ġto", "305": "Ġand", "306": "as", "307": "ro", "309": "ent", "310": "Ġh", "311": "ct", "312": "Ġe", "313": "Ġn", "314": "Ġl", "315": "Ġth", "316": "om", "317": "el", "318": "st", "319": "et", "321": "il", "322": "Ġre", "327": "ĠS", "328": "im", "329": "id", "330": "ĠT", "331": "ol", "333": "ut", "334": "ĠA", "336": "Ġg", "337": "ra", "339": ".ĊĊ", "340": "iv", "341": "ation", "343": "Ġ(", "344": "Ġis", "346": "ur", "347": "ot", "348": "ch", "349": "us", "350": "ig", "353": "ce", "356": "am", "359": "ow", "360": "ad", "362": "Ġfor", "363": "ul", "366": "Ġbe", "367": "ly", "370": "Ġst", "371": "un", "372": "##", "373": "ĠM", "374": "Ġv", "376": "os", "381": "em", "383": "Ġy", "386": "ay", "387": "ers", "388": "ir", "392": "Ġde", "394": "if", "395": "um", "396": "Ġthat", "397": "20", "399": "Ġcon", "400": "ith", "401": "od", "402": "ter", "403": "qu", "406": "ĠB", "409": "ag", "411": "Ġan", "412": "Ġas", "413": "Ġpro", "414": "her", "416": "est", "418": "Ġwith", "423": "Ġal", "425": "ab", "426": "..", "427": "ve", "432": "ver", "433": "ĠR", "434": "ate", "435": "ist", "436": "Ġit", "438": "Ġ=", "439": "ac", "440": "Ġyou", "443": "res", "446": "ĠE", "447": "ĠF", "449": "ess", "454": "ect", "458": "and", "459": "Ġwh", "460": "ri", "463": "th", "465": "Ġcom", "467": "se", "468": "Ġhe", "469": "Ġor", "472": "Ġex", "475": "ill", "476": "op", "477": "Ġare", "479": "ant", "480": "ak", "482": "ort", "484": "oc", "488": "Ġse", "490": "ment", "491": "ht", "494": "Ġr", "496": "rom", "498": "Ġsu", "499": "ain", "500": "ie", "504": "00", "505": "ive", "513": "Ġby", "514": "ld", "517": "ies", "520": "og", "521": "art", "522": "Ġne", "523": "end", "529": "pt", "532": "Ġle", "533": "nt", "534": "ure", "535": "Ġha", "536": "ial", "537": "Ġch", "538": "Ġfrom", "540": "pl", "549": "Ġu", "550": "Ġus", "551": "our", "552": "ĠJ", "553": "10", "554": "Ġnot", "555": "ang", "559": "pe", "560": "ine", "564": "ight", "565": "Ġ-", "566": "Ġthis", "567": "per", "568": "Ġsh", "574": "ell", "576": "Ġen", "578": "all", "581": "ber", "582": "Ġ\"", "583": "ust", "588": "Ġcan", "591": "are", "592": "te", "601": "ia", "602": "ost", "603": ".Ċ", "606": "out", "607": "ult", "611": "Ġhave", "612": "Ġun", "614": "ue", "615": "age", "617": "ff", "620": "rou", "624": "ass", "630": "ap", "631": "ould", "632": "ip", "633": "ok", "634": "ans", "635": "ik", "639": "Ġab", "640": "orm", "645": "Ġqu", "647": "Ġwor", "648": "ast", "650": "int", "651": "act", "655": "ind", "663": "ĠâĢ", "664": "du", "668": "Ġad", "671": "The", "675": "Ġcomp", "676": "Ġres", "677": "ence", "679": "able", "680": "Ġ{", "681": "ide", "684": "ous", "686": "ib", "687": "ire", "688": "Ġint", "690": "hen", "691": "ame", "692": "cc", "696": "Ġdo", "702": "ther", "705": "ge", "707": "ear", "710": "Ġall", "716": "Ġper", "717": "ere", "723": "ime", "724": "av", "725": "fer", "726": "ase", "727": "ru", "729": "con", "730": "ance", "734": "'s", "736": "12", "744": "ry", "749": "ents", "754": "),", "755": "ep", "757": "ov", "758": "lic", "764": "Ġ[", "767": "ens", "772": "gh", "781": "ress", "782": "Ġyour", "784": "Ġpr", "785": "Ġar", "791": "one", "792": "200", "794": "form", "795": "###", "798": "Ġout", "803": "ne", "805": "ace", "806": "ile", "813": "ks", "814": "ual", "818": "Ġ<", "821": "so", "826": "Ġsa", "829": "xt", "832": "Ġso", "841": "Ġtr", "845": "ite", "847": "Ġla", "849": "urn", "852": "Ġpre", "858": "vel", "862": "ll", "863": "ose", "869": "ory", "870": "ount", "877": "ake", "878": "Ġsp", "879": "ail", "891": "ely", "892": "Ġpart", "894": "ĠY", "895": "ci", "897": "ces", "901": "ath", "906": "ree", "915": "Ġother", "916": "Ġinter", "920": "Ġro", "922": "ys", "924": "ob", "926": "16", "927": "Ġev", "928": "de", "932": "Ġund", "952": "ound", "958": "ew", "960": "Ġag", "962": "ple", "964": "ject", "965": "âĢĶ", "966": "ram", "967": "oll", "968": "com", "971": "we", "972": "ric", "977": "cre", "979": ":ĊĊ", "981": "ring", "992": "ng", "997": "ert", "999": "ck", "1003": "erm", "1007": "aus", "1008": "Ġi", "1009": "Ġits", "1012": "reat", "1014": "Ġtime", "1015": "wo", "1016": "ays", "1018": ">Ċ", "1021": "ft", "1022": "Ġtra", "1024": "Ġcomm", "1028": "rit", "1034": "che", "1035": "ari", "1036": "here", "1039": "ont", "1040": "ike", "1054": "ons", "1055": "Ġinto", "1059": "30", "1061": "irst", "1065": "pec", "1086": "Ġacc", "1090": "Ġdif", "1094": "Ġret", "1095": "ss", "1098": "Ġpe", "1099": "Ġthan", "1101": "ally", "1110": "ond", "1111": "und", "1115": "cess", "1116": "Ġwork", "1117": "Ġany", "1119": "Ġno", "1120": "Ġcons", "1125": "Ġob", "1126": "Ġind", "1128": "Ġass", "1129": "old", "1135": "Ġrel", "1137": ":Ċ", "1143": "ink", "1149": "ps", "1154": "les", "1157": "red", "1159": "Ġpo", "1161": "Ġval", "1163": "Ġra", "1179": "Ġform", "1182": "ular", "1184": "ode", "1185": "hat", "1188": "ning", "1189": "ty", "1194": "igh", "1199": "ied", "1200": "io", "1201": "Ġbl", "1202": "Ġunder", "1206": "Ġexp", "1212": "ery", "1218": "Ġco", "1225": "Ġshe", "1226": "ise", "1234": "Ġtwo", "1238": "ef", "1240": "?ĊĊ", "1242": "fter", "1246": "ative", "1250": "Ġreg", "1253": "pr", "1257": "Ġfirst", "1267": "Ġmod", "1269": "ug", "1272": "ange", "1276": "Ġinv", "1277": "Ġlike", "1281": "=\"", "1282": "ble", "1283": "rough", "1289": "ex", "1290": "als", "1297": "pro", "1298": "Ġdi", "1303": "its", "1308": "ause", "1314": "tern", "1320": "000", "1325": "ax", "1327": "Ġâ", "1328": "50", "1332": "ution", "1337": "Ġsc", "1341": "Ġset", "1347": "Ġuse", "1351": "Ġdef", "1354": "Ġreturn", "1355": "ock", "1359": "Ġsaid", "1366": "ec", "1370": "ove", "1383": "Ġpar", "1388": "itt", "1394": "oth", "1396": "Ġac", "1400": "St", "1404": "Ġfun", "1406": "very", "1408": "put", "1411": "eg", "1422": "ull", "1423": "ix", "1424": "ten", "1431": "ey", "1432": "Ġsur", "1435": "ict", "1444": "uch", "1446": "ough", "1447": "ues", "1448": "ork", "1451": "Ġresp", "1456": "Ġrem", "1457": "100", "1458": "ool", "1465": "ek", "1470": "Ġent", "1473": "Ġmost", "1479": "Ġwhere", "1480": "ym", "1483": "sp", "1485": "Ġspec", "1495": "to", "1497": "uc", "1501": "arch", "1504": "ollow", "1506": "Ġhel", "1509": "ins", "1511": "cond", "1514": "der", "1526": "Ġque", "1531": "Ġshould", "1534": "inal", "1543": "Ġdel", "1552": "tt", "1561": "Ġafter", "1567": "Ġsm", "1574": "Ġty", "1589": "pos", "1600": "Ġconst", "1605": "Ġfollow", "1610": "led", "1613": "...", "1619": "ran", "1631": "any", "1635": "Ġmake", "1636": "Th", "1638": "ider", "1640": "Ġed", "1642": "Ġdec", "1643": "Ġpat", "1647": "ER", "1648": "ts", "1663": "Ġsol", "1668": "fl", "1672": "other", "1676": "ern", "1689": "Ġbu", "1691": "Ġstr", "1692": "co", "1693": "Ġext", "1694": "Ġhelp", "1699": "Ġprocess", "1716": "ting", "1718": "</", "1721": "ever", "1743": "sw", "1750": "Ġevery", "1751": "au", "1760": "\",", "1769": "ives", "1773": "ript", "1775": "let", "1778": "}Ċ", "1782": "ute", "1789": "par", "1796": "ional", "1805": "the", "1807": "ms", "1808": "ined", "1820": "Ġagain", "1822": "sc", "1829": "vers", "1835": "ave", "1843": "Ġer", "1844": "ash", "1855": "Ġvery", "1871": "oun", "1873": "ential", "1874": "ray", "1876": "ox", "1879": "val", "1884": "ĠFor", "1912": "irect", "1926": "Ġcall", "1929": "ather", "1930": "min", "1934": "bers", "1952": "Ġboth", "1964": "ON", "1976": "hes", "1986": "ases", "1990": "Ġvalue", "1993": "Ġins", "1998": "Ġrep", "2007": "ected", "2014": "anc", "2023": "gg", "2031": "ired", "2042": "ĠYou", "2046": "ght", "2057": "Ġquest", "2065": "ole", "2068": "Ġfin", "2074": "Ġdep", "2083": "me", "2091": "ina", "2101": "ret", "2107": "It", "2111": "32", "2118": "Ġthink", "2119": "ually", "2128": "ving", "2136": "ĠâĢĶ", "2148": ".\"", "2154": "of", "2159": "Ġgr", "2160": "man", "2164": "ason", "2167": "Re", "2176": "ration", "2185": "Ġproble", "2198": "li", "2238": "ai", "2245": "oot", "2248": "ee", "2251": "for", "2255": "Ġconsider", "2258": "ma", "2260": "tain", "2261": "Ġmult", "2271": "AR", "2274": "Ġfil", "2276": "cript", "2281": "Ġpass", "2288": "itive", "2293": "Ġcal", "2304": "be", "2313": "att", "2314": "ote", "2329": "Ġname", "2335": "ccess", "2336": "Ġlast", "2346": "ves", "2347": "swer", "2351": "Ġwrit", "2352": "Ġcase", "2364": "-t", "2365": "}ĊĊ", "2381": "ument", "2382": "bs", "2383": "Ġpot", "2385": "eter", "2391": "ively", "2395": "Ġsmall", "2399": "ified", "2417": "-d", "2423": "nal", "2425": "Ch", "2428": "son", "2438": "ke", "2441": "Ġadv", "2452": "less", "2453": "ST", "2486": "Ġmil", "2492": "ror", "2502": "Ġfollowing", "2504": "med", "2508": "OR", "2517": "ament", "2533": "str", "2536": "gen", "2548": "Ġspe", "2568": "ta", "2570": "AL", "2589": "rac", "2594": "ertain", "2599": "ger", "2600": "ĠTo", "2607": "Ġmill", "2613": "Ġtype", "2616": "01", "2624": "Ġdirect", "2631": "Ġbo", "2640": "ains", "2642": "05", "2676": "umber", "2677": "An", "2690": "rop", "2694": "Ġchang", "2699": "face", "2700": "Ex", "2710": "go", "2719": "ression", "2720": "na", "2727": "Ġtoo", "2728": "Ġ</", "2735": "une", "2739": "work", "2743": "den", "2754": "Ġunt", "2755": "?Ċ", "2757": "Ġchange", "2762": "ule", "2765": "Ġagainst", "2772": "Ġlim", "2775": "Ġproject", "2795": "Ġver", "2797": "af", "2814": "Ġgre", "2816": "by", "2829": "pon", "2837": "requ", "2839": "new", "2852": "name", "2864": "Ġpa", "2866": "ĠBe", "2868": "hem", "2869": "not", "2873": "Ġobject", "2874": "ĠSch", "2912": "Ġlog", "2919": "Con", "2928": "ny", "2932": "cer", "2933": "ser", "2940": "Ġtyp", "2944": "olution", "2964": "ently", "2966": "plic", "2979": "ype", "2984": "Ġworks", "2986": "ope", "2990": "ches", "2991": "As", "2992": "IT", "3001": "Ġleft", "3031": "],", "3037": "sh", "3041": "ume", "3050": "tr", "3054": "To", "3058": "ailable", "3063": "over", "3074": "thing", "3085": "What", "3089": "ĠAb", "3092": "rm", "3094": "yp", "3100": "ga", "3103": "use", "3107": "Ġshort", "3116": "enc", "3119": "Ġna", "3125": "Ġve", "3126": "Ġinte", "3132": "Ġstep", "3135": "rite", "3150": "Ġnet", "3152": "Ġsi", "3177": "Ġsw", "3180": "42", "3188": "ably", "3223": "Ġwhe", "3248": "reg", "3253": "itor", "3272": "ler", "3278": "Ġaccess", "3283": "Ġpotential", "3284": "set", "3287": "Ġanswer", "3292": "Ġtrue", "3295": "Ġproblem", "3315": "07", "3320": "\">", "3330": "Ġlo", "3331": "que", "3339": "rie", "3341": "Ġang", "3362": "\":", "3384": "comm", "3389": "alse", "3398": "06", "3402": "ET", "3404": "Ġut", "3405": "ext", "3417": "Ġquestion", "3418": "Ġstring", "3423": "Ġfr", "3424": "earch", "3438": "Ġens", "3444": "ara", "3465": "def", "3473": "ault", "3474": "lete", "3476": "You", "3480": "Ġcertain", "3487": "isc", "3489": "ites", "3503": "rict", "3507": "ered", "3514": "Ġuntil", "3519": "Ġsym", "3521": "Ġprob", "3522": "Ġarr", "3524": "String", "3533": ".C", "3535": "iple", "3541": "bo", "3546": "Ġlik", "3548": "pre", "3550": "cont", "3554": "Ġabove", "3567": "no", "3570": "arr", "3575": "If", "3583": "Ġpara", "3587": "ho", "3591": "ĠSc", "3603": "inter", "3608": "Ġ`", "3618": "Ġpath", "3696": "Ġdoc", "3700": "ste", "3705": "Ġcaus", "3712": "500", "3713": "br", "3736": "cription", "3759": "Ġrespons", "3773": "Ġfund", "3778": "bl", "3779": "this", "3794": "NA", "3798": "ump", "3809": "ption", "3812": "rem", "3816": "\">Ċ", "3827": "RE", "3831": "}}", "3853": "Ġtw", "3865": "US", "3869": "ties", "3870": "For", "3876": "Ġstre", "3898": "Ġconc", "3901": "Cont", "3906": "epend", "3913": "(n", "3916": "return", "3937": "atter", "3941": "Ġabs", "3949": "const", "3967": "Ġuser", "3979": "Ġmax", "3986": "Ġreason", "3991": "chan", "3992": "unt", "4014": "side", "4016": "do", "4057": "Ġlas", "4059": "ha", "4070": "most", "4075": "alu", "4087": "Ġfinal", "4091": "ios", "4105": "Ġtool", "4109": "Ġage", "4121": "Ġste", "4124": "ening", "4130": "AM", "4137": "onse", "4142": "ising", "4150": "era", "4171": "ula", "4201": "ounds", "4203": "opt", "4205": "place", "4245": "Ġfile", "4247": "hel", "4256": "Ġresponse", "4260": "iber", "4269": "po", "4280": "iff", "4285": "Ġce", "4286": "wh", "4290": "iting", "4291": "Wh", "4315": "imum", "4319": "arc", "4333": "Ġinde", "4373": "nder", "4374": "Se", "4402": "Ġcompon", "4419": "rel", "4433": "Ġsurface", "4438": "itted", "4441": "eters", "4462": "Ġdire", "4463": "string", "4485": "Ġcomplet", "4488": "-h", "4516": "medi", "4525": "itch", "4535": "pose", "4541": "Ġever", "4558": "la", "4562": "Ġrather", "4565": "mit", "4578": "Ġparam", "4589": "left", "4599": "Ġcases", "4611": "type", "4615": "Ġsy", "4623": "da", "4624": "ief", "4625": "Ġdefin", "4630": "Ġsolution", "4651": "Ġexpress", "4665": "(t", "4676": "off", "4696": "alt", "4697": ">ĊĊ", "4698": "Ġmo", "4710": "rt", "4717": "ental", "4746": "cover", "4776": "Ġcause", "4779": "where", "4794": "lying", "4798": "Ġroot", "4806": "hing", "4811": "pen", "4815": "Ġtypes", "4830": "oper", "4839": "ki", "4870": "120", "4875": "log", "4893": "umb", "4924": "Ġmi", "4925": "met", "4934": "men", "4940": "Ġdocument", "4941": "_c", "4950": "ects", "4979": "lo", "4981": "ini", "4985": "Ġwriting", "4990": "Ġmultiple", "4995": "Ġlive", "5015": "estion", "5016": "ui", "5017": "iles", "5035": "Ġfa", "5037": "Ġsite", "5040": "rix", "5044": "ref", "5062": "Ġfalse", "5071": "[]", "5083": "Ġconsidered", "5085": "Ġwrite", "5096": "cal", "5139": "Ġrat", "5158": "mod", "5164": "Ġma", "5168": "gor", "5175": "fo", "5193": "va", "5197": "value", "5207": "ua", "5212": "Ġdeep", "5221": "Ġentire", "5226": "ensive", "5233": "iat", "5238": "Ġoutput", "5253": "IM", "5261": "Ġensure", "5265": "user", "5273": "acc", "5305": "Ġscre", "5323": "aving", "5339": "bject", "5351": "Ġsearch", "5356": "from", "5401": "Ġexec", "5406": "oke", "5410": "lim", "5419": "ession", "5424": "Ġregul", "5451": "><", "5487": "âĸ", "5491": "Ġsch", "5494": "param", "5505": "Ġstress", "5550": "rial", "5553": "Ġcomplete", "5554": "Ġarray", "5567": "ding", "5598": "_f", "5603": "Ġblock", "5610": "Ġerror", "5611": "-n", "5618": "Ġq", "5628": "ba", "5630": "ependent", "5636": "je", "5639": "change", "5663": "xim", "5665": "Ġmulti", "5674": "sum", "5695": "hens", "5703": "oul", "5745": "gl", "5748": "orks", "5760": "Ġnothing", "5777": "ternal", "5779": "Ġbr", "5787": "ni", "5793": "Ġexpression", "5801": "mp", "5805": "onal", "5815": "Ġsche", "5821": "part", "5824": "Ġtou", "5836": "Ġregular", "5864": "_m", "5872": "net", "5879": "ï½", "5896": "OL", "5905": "quest", "5918": "fort", "5921": "Ġhy", "5922": "'ll", "5924": "script", "5928": "Ġaltern", "5935": "rat", "5976": "pi", "5986": "equ", "5990": "unch", "5996": "Ġprefer", "6002": "mm", "6012": "ponse", "6047": "dis", "6060": "pat", "6107": "Ġcommand", "6109": "Ġpas", "6135": "with", "6146": "ario", "6150": "itte", "6156": "Ġlives", "6160": "ously", "6162": "Ġprobably", "6228": "Ġcompl", "6245": "Ġconstant", "6256": "pa", "6275": "egin", "6283": "term", "6306": "lt", "6309": "ria", "6319": "Ġexact", "6321": "len", "6324": "des", "6352": "Ġinside", "6366": "hi", "6379": "oo", "6384": "ev", "6409": "Ġstop", "6424": "mat", "6428": "Ġdefined", "6448": "rig", "6455": "001", "6461": "Ġlimit", "6462": "alle", "6488": "Ġca", "6507": "edia", "6514": "ponent", "6534": "see", "6544": "ca", "6578": "Ġdirectly", "6580": "exp", "6589": "vo", "6622": "Ġou", "6645": "Ġremain", "6654": "Ġassum", "6698": "Ġcas", "6704": "Ġtools", "6707": "Ġstri", "6734": "Ġerr", "6746": "ati", "6754": "Ab", "6756": "User", "6777": "mitted", "6792": "TO", "6802": "ses", "6833": "Ġtim", "6834": "angle", "6842": "Ġhyp", "6846": "ente", "6848": "ena", "6880": "ona", "6892": "Ġthinking", "6918": "rief", "6921": "rc", "6922": "wise", "6989": "},", "7019": "fe", "7022": "Ġcompre", "7038": "pert", "7082": "unc", "7099": "Ġaf", "7129": "mo", "7153": "Be", "7211": "Ġsympt", "7216": "mi", "7221": "ito", "7257": "Ġcomponents", "7275": "itory", "7296": "Rep", "7339": "></", "7347": "hesis", "7353": "box", "7372": "vi", "7386": "array", "7398": "ML", "7399": "ista", "7423": "Ġalt", "7458": "wer", "7508": "Sc", "7532": "Ġrele", "7541": "unn", "7546": "eration", "7552": "Ġcomponent", "7562": "ds", "7584": "works", "7592": "cons", "7675": "comp", "7684": "sec", "7691": "RA", "7753": "sch", "7805": "Answer", "7835": "...Ċ", "7905": "ende", "7926": "Ġremains", "7958": "test", "8027": "rip", "8041": "Do", "8084": "xi", "8091": "ima", "8095": "Us", "8104": "file", "8173": "Ġmaximum", "8181": "Ġindependent", "8252": "Ġparameters", "8260": "eger", "8277": "begin", "8288": "ete", "8320": "gu", "8322": "time", "8343": "Ġsea", "8345": "EF", "8347": "err", "8369": "Ġchance", "8380": "mas", "8386": "Set", "8391": "fs", "8435": "Ġobjects", "8436": "ema", "8439": "Ġabsol", "8441": "si", "8473": "Ġcomprehens", "8492": "rs", "8502": "ici", "8513": "ters", "8534": "ying", "8571": "Ġtouch", "8679": "like", "8686": "oding", "8705": "kin", "8730": "Ġdiff", "8742": "Ġsto", "8786": "Ġformat", "8797": "Ġcert", "8798": "ĠAv", "8812": "tes", "8881": "aft", "8889": "olve", "8892": "Ġscen", "8926": "Ġsites", "8953": "Ġswitch", "8958": "han", "8981": "sl", "9001": "result", "9047": "max", "9056": "root", "9073": "ypes", "9095": "inking", "9140": "ns", "9159": "mu", "9175": "Ġfol", "9204": "tre", "9211": "lem", "9224": "aria", "9235": "Ġalternative", "9246": "Ġfundament", "9275": "gi", "9290": "gin", "9326": "content", "9332": "can", "9335": "Ġdepth", "9336": "that", "9354": "Ġvalu", "9363": "rect", "9368": "TER", "9390": "Ġexternal", "9417": "ti", "9421": "Ġscreen", "9449": "Ġedge", "9487": "Ġsolve", "9504": "ĠEff", "9527": "Ġri", "9543": "/t", "9547": "check", "9563": "ila", "9573": "Ġli", "9585": "rame", "9609": "Ġangle", "9646": "las", "9650": "olean", "9660": "ocument", "9673": "Act", "9688": "oj", "9708": "Ġbrief", "9730": "error", "9750": "sen", "9762": "pass", "9782": "Ass", "9801": "uest", "9860": "path", "9873": "cis", "9886": "king", "9895": "abled", "9899": "ted", "9942": "nce", "9961": "under", "10016": "inst", "10026": "nen", "10064": "num", "10066": "fol", "10071": "last", "10198": "ameter", "10211": "hav", "10223": "PA", "10241": "Ġunc", "10249": "iate", "10253": "image", "10259": "ME", "10266": "Ġmultip", "10278": "riting", "10284": "abs", "10324": "valu", "10325": "object", "10340": "Ġreturns", "10344": "icit", "10358": "othing", "10382": "-de", "10388": "dule", "10427": "ugh", "10434": "Ġsit", "10499": "count", "10500": "enu", "10501": "Ġcomprehensive", "10525": "DS", "10562": "Ġchain", "10566": "lock", "10620": "Ġhypot", "10621": "uto", "10661": "Ġsand", "10694": "Ġalter", "10699": "Ġcalls", "10719": "blem", "10767": "Ġparameter", "10879": "Ġva", "10907": "istan", "10915": "sin", "10917": "agen", "10930": "second", "10931": "[\"", "10975": "ls", "10981": "Ġleaving", "11006": "define", "11014": "Ġagent", "11030": "output", "11045": "fa", "11058": "lu", "11067": "Ne", "11078": "Ġot", "11084": "pes", "11119": "umbers", "11161": "TR", "11162": "othe", "11184": "rec", "11264": "Ġfundamental", "11276": "race", "11286": "Ġans", "11291": "Ġsho", "11303": "Ġsan", "11340": "Co", "11348": "Ġdefine", "11352": "sm", "11398": "ativ", "11400": "nam", "11418": "Ġperm", "11432": "db", "11476": "true", "11483": "Ġreject", "11506": "uing", "11510": "win", "11530": "hy", "11582": "Ġindepend", "11646": "su", "11648": "di", "11675": "case", "11684": "plete", "11698": "UE", "11706": "mal", "11748": "iti", "11758": "ository", "11775": "wi", "11805": "Che", "11832": "isi", "11855": "etry", "11943": "vin", "11961": "ques", "11993": "esis", "12027": "uts", "12038": "Ġspecified", "12082": "format", "12084": "Ġcer", "12104": "perties", "12124": "Ġmodule", "12163": "urns", "12220": "Ġthin", "12270": "Ġbool", "12312": "pons", "12327": "gent", "12349": "gr", "12370": "ĠRE", "12386": "Search", "12461": "reen", "12468": "orough", "12477": "Ġsrc", "12535": "Ġenable", "12548": "alls", "12556": "sis", "12611": "unning", "12743": "_in", "12777": "/n", "12829": "you", "12872": "sa", "12993": "main", "13079": "Other", "13102": "oni", "13178": "ĠSche", "13213": "first", "13217": "Exp", "13222": "Don", "13233": "rays", "13301": "Ġrig", "13339": "rio", "13382": "rance", "13397": "ools", "13433": "til", "13444": "Ġliv", "13504": "eps", "13508": "SO", "13542": "Fin", "13574": "quir", "13592": "creen", "13622": "Ġtoler", "13626": "lik", "13667": "inu", "13684": "enta", "13716": "Ġunderlying", "13747": "\"]", "13768": "ele", "13828": "Ġnam", "13876": "elen", "13903": "utely", "13913": "aga", "13929": "Ġfro", "13935": "oro", "13978": "Expl", "14013": "edge", "14020": ".</", "14028": "arios", "14066": "bu", "14100": "ponents", "14144": "ALU", "14148": "Ġabsolute", "14188": "Ġlogic", "14283": "Ac", "14294": "Ġmu", "14346": "search", "14360": "number", "14371": "yo", "14444": "Ġshell", "14468": "Ġboolean", "14506": "mand", "14528": "Ġstrict", "14564": "Ġshel", "14634": "tan", "14637": "chem", "14660": "vere", "14716": "conds", "14734": "lib", "14753": "owing", "14776": "wing", "14788": "adv", "14791": "she", "14881": "Ġforma", "14885": "Use", "14886": "rif", "14922": "fin", "14965": "Find", "14979": "default", "15059": "istant", "15065": "Ġfi", "15117": "mediate", "15146": "Ġthorough", "15205": "Check", "15248": "enti", "15271": "Ġfu", "15277": "rep", "15329": "response", "15443": "Ġobj", "15479": "after", "15483": "cu", "15503": "SON", "15518": "Ġscr", "15529": "Ġ[]", "15535": "rin", "15606": "Ġmultipl", "15612": "igo", "15618": "inte", "15671": "een", "15779": "haust", "15782": "Ġcha", "15888": "process", "15943": "nu", "15983": "Ġdir", "16004": "MI", "16033": "Ġmaxim", "16042": "null", "16043": "ths", "16077": "_i", "16126": "top", "16190": "ctu", "16342": "cha", "16506": "Ġpermit", "16555": "block", "16621": "tion", "16640": "mult", "16642": "Ġfo", "16670": "rous", "16705": "eli", "16722": "fil", "16808": "Ġabsolutely", "16869": "ked", "16915": "Ġhypothesis", "17063": "access", "17095": "ned", "17133": "orous", "17167": "Ġexhaust", "17174": "pu", "17186": "ipt", "17194": "enden", "17237": "cap", "17239": "_L", "17315": "Str", "17330": "mb", "17371": "obj", "17373": "rea", "17464": "usal", "17632": "edit", "17829": "ĠAvailable", "17844": "ea", "17950": "gle", "17990": "mos", "18039": "Sch", "18220": "Ġcomple", "18231": "pository", "18421": "del", "18494": "ameters", "18495": "bled", "18534": "Ġangles", "18553": "Ġscenario", "18598": "_re", "18687": "ols", "18707": "types", "18756": "jects", "18779": "hor", "18799": "help", "18834": "dir", "18860": "mitt", "18950": "FO", "18977": "cr", "19010": "TE", "19072": "Av", "19086": "_file", "19139": "hort", "19173": "req", "19241": "imi", "19411": "Eff", "19454": "VA", "19482": "Ġedit", "19513": "hell", "19529": "lar", "19557": "Ġproc", "19577": "low", "19616": "chain", "19660": "tra", "19679": "tu", "19685": "Ġtrace", "19691": "ouch", "19727": "Ġresolve", "19734": "Ġbot", "19836": "false", "19851": "chema", "19855": "cut", "19894": "plicit", "19904": "Ġsmallest", "19914": "SM", "19932": "pend", "19995": "answer", "20038": "module", "20072": "question", "20085": "dam", "20202": "scription", "20255": "Ġcoding", "20300": "loc", "20305": "egu", "20368": "Ġintermediate", "20389": "umen", "20460": "rob", "20472": "\"The", "20539": "Ġassumption", "20584": "Ġ[\"", "20600": "bool", "20608": "Ġti", "20627": "_N", "20636": "ORE", "20813": "nn", "20829": "Ġpaths", "20850": "regular", "20855": "description", "20907": "_V", "20953": "mental", "20963": "prehens", "21144": "ĠAbs", "21192": "step", "21339": "osi", "21355": "Ġdeliber", "21375": "Ġswit", "21378": ".r", "21410": "eyond", "21440": "Op", "21457": "fr", "21576": "tter", "21611": "epth", "21632": "Ġindependently", "21692": "tw", "21740": "Ġmul", "21797": "aid", "21805": "Ġscenarios", "21819": "BE", "21860": "tor", "21939": "onds", "21941": "roc", "21946": "ej", "21981": "oning", "22014": "nab", "22055": "amen", "22098": "erta", "22104": "Ġenabled", "22153": "ping", "22218": "Ġexecute", "22274": "uti", "22540": "lab", "22597": "ĠBE", "22640": "media", "22652": "Ġproces", "22677": "bas", "22687": "omi", "22716": "require", "22762": "sta", "22785": "(num", "22805": "Ġreasoning", "22838": "Ġcod", "22883": "press", "22934": "UST", "22948": "Ġtru", "23002": "oler", "23047": "Ġrejected", "23077": "dec", "23102": "NAME", "23126": "fi", "23225": "eq", "23315": "two", "23418": "into", "23463": "Ġpermitted", "23553": "should", "23577": "Ġmos", "23591": "irs", "23596": "Ġdecom", "23610": "efined", "23725": "hot", "23738": "_r", "23849": "olver", "24030": "Ġtolerance", "24056": "Ġwr", "24109": "iseconds", "24129": "insi", "24181": "olu", "24183": "perm", "24257": "defined", "24313": "{\"", "24385": "components", "24389": "fun", "24411": "bot", "24483": "src", "24486": "required", "24498": "Ġadvers", "24568": "}</", "24669": "answ", "24744": "Ġfal", "24752": "Ġbriefly", "24802": "stan", "24926": "eft", "24994": "angles", "25094": "writing", "25106": "ifi", "25107": "yon", "25193": "make", "25301": "nde", "25350": ".Cont", "25441": "esc", "25607": "have", "25659": "perti", "25727": "esp", "25837": "write", "25860": "pot", "25902": "{}", "25910": "spec", "25937": "sto", "25959": "oba", "26102": "Ġ{}", "26169": "aram", "26432": "/re", "26515": "fly", "26548": "Ġrepository", "26606": "call", "26622": "shot", "26639": "ĠJSON", "26669": "site", "26671": "beg", "26691": "eh", "26702": "prop", "26755": "ivel", "26758": "small", "26797": "bound", "26908": "Ġwo", "26976": "try", "27019": "mill", "27193": "ĠTools", "27244": "Ġblo", "27265": "his", "27387": "Fi", "27397": "hou", "27421": "Ġsurf", "27555": "liv", "27586": "returns", "27589": "din", "27612": "nte", "27797": "sur", "27860": "agent", "27933": "Opt", "27965": "project", "28011": "hai", "28118": "ensitive", "28217": "ï½ľ", "28244": "eri", "28249": "ĠTool", "28258": "dep", "28259": "AME", "28381": "command", "28411": "gre", "28414": "/.", "28578": "tha", "28583": "sea", "28590": "Great", "28612": "Ġ{\"", "28656": "Ġwit", "28693": "abl", "28704": "iffs", "28818": "seconds", "28844": "unda", "28894": "reas", "28917": "cen", "29172": "expression", "29200": "unde", "29382": "Run", "29383": "pres", "29437": "Option", "29614": "inde", "29647": "sche", "29789": "olute", "29804": "-te", "29851": "Ġstrictly", "29879": "sti", "29955": "/r", "30041": "ĠBeyond", "30129": "Ġpotent", "30181": "-test", "30195": "imit", "30295": "stre", "30316": "}}Ċ", "30655": "esi", "30721": "osit", "30726": "OO", "30747": "usa", "30781": "doc", "30856": "pin", "31000": "ibe", "31150": "short", "31159": "Ġscreens", "31234": "fu", "31341": "edi", "31374": "eni", "31386": "rr", "31712": "_res", "31756": "Ġmilliseconds", "31847": "hs", "31865": "Schema", "31923": ">{", "31939": "Ġarrays", "32196": "plet", "32315": "haus", "32334": ".<", "32359": "odi", "32386": "JS", "32457": "Ġverified", "32794": "Ġunch", "32842": "hec", "32882": "Gr", "32966": "umption", "32973": "both", "33183": "your", "33236": "}}ĊĊ", "33451": "uin", "33461": "avi", "33673": "Ġextern", "33680": "sing", "33781": "uld", "33853": "lis", "33898": "Ġexecut", "33983": "consider", "34030": "document", "34306": "ĠToo", "34351": "nten", "34420": "igger", "34422": "ean", "34642": "hin", "34676": "endent", "34756": "Ġinvoke", "34833": "LI", "34939": "JSON", "34957": "than", "34973": "direct", "35044": "_NAME", "35167": "rror", "35204": "Ġpref", "35305": "rf", "35384": "lle", "35392": "mag", "35399": "ETE", "35452": "ollo", "35562": "exec", "35638": "para", "35782": "leans", "35789": "Contin", "35803": "expr", "35835": "iona", "35926": "testing", "35954": "yi", "36055": "stop", "36132": "prom", "36299": "ĠJS", "36525": "cit", "36541": "boolean", "36597": "atio", "36760": "omp", "36830": "Never", "36975": "rn", "37175": "Ġsymptom", "37419": "`.", "37647": "RY", "37684": "every", "37703": "hang", "37772": "Ġcausal", "37817": "odu", "37913": "Ġschema", "37947": "think", "38035": "screen", "38063": "escription", "38190": "xe", "38252": "Ġswitches", "38307": "Ġfals", "38322": "Ġ\"<", "38516": "onte", "38556": "Ti", "38620": "..Ċ", "38739": "disc", "38784": "igg", "38858": "oten", "38878": "Abs", "38928": "nat", "38938": "plain", "38965": "lli", "39130": "ALUE", "39269": "Ġmak", "39634": "prob", "39648": "integer", "39673": "limit", "39882": "Ġrigorous", "39889": "Ġbump", "39914": "tri", "40148": "inv", "40235": "isco", "40240": "conc", "40248": "Ġcausa", "40296": "Sche", "40402": "integ", "40410": "respons", "40484": "esti", "40499": "limits", "40625": "pas", "40666": "cas", "40784": "wor", "40792": ">)", "40793": "hte", "40818": "Ġprobl", "40826": "nda", "41289": "again", "41307": "eso", "41348": "onen", "41467": "Gre", "41523": "parameter", "41551": "final", "41595": "mma", "41629": "_image", "41653": "}}}", "41724": "ensi", "41866": "covered", "41889": "Ġintermedi", "41931": "stant", "42014": "express", "42140": "sal", "42282": "typ", "42284": "illi", "42454": "posit", "42639": "Tool", "42886": "owi", "42891": "objects", "43070": "Ġangl", "43108": "rst", "43132": "diff", "43185": "Available", "43207": "cke", "43306": "uir", "43378": "eo", "43386": ">.", "43594": "spe", "43658": "tim", "43693": "pattern", "43958": "\"What", "44016": "olerance", "44023": "obl", "44389": "Ġthor", "44585": "files", "44742": "Ġfir", "44793": "erl", "45060": "tip", "45128": "dit", "45207": "Ġconsid", "45275": "mage", "45278": "itches", "45375": "avin", "45390": "\"],", "45440": "Ans", "45525": "follow", "45594": "mis", "45628": "ipl", "45887": "(number", "45968": "aso", "45994": "fund", "46009": "arial", "46148": "_result", "46172": "parameters", "46219": "xa", "46235": "Ġexh", "46248": "cod", "46320": "nc", "46573": "ĠSchema", "46630": "PAR", "46659": "alter", "46680": "Ġexpres", "46941": "switch", "47002": "enum", "47040": "OOL", "47244": "refer", "47261": "rl", "47467": "enario", "47468": "Ġconcise", "47471": "desc", "47569": "checked", "47747": "robl", "47750": "aths", "47808": "etur", "47827": ";</", "47867": "problem", "47935": "fte", "48103": "enting", "48272": "gger", "48398": "scr", "48536": "sy", "48603": "inki", "48663": "]}", "48680": "certain", "48748": "Ġyo", "48902": ">\"", "48966": "aul", "49044": "component", "49263": "multi", "49398": "Ġhypothes", "49399": "rue", "49421": "teg", "49435": "ympt", "49508": "olutely", "49568": "efe", "49576": "nar", "49897": "shell", "50020": "VAL", "50060": "tl", "50098": "Ġcomma", "50302": "tm", "50305": "*.", "50359": "complete", "50488": "jected", "50560": "FOR", "50607": "erna", "50634": "onc", "50879": "Ġrelent", "50919": "bly", "50974": "tel", "51015": "entence", "51198": "mall", "51401": "atte", "51427": "arra", "51935": "ausal", "52111": "Beyond", "52310": "cert", "53109": "dia", "53210": "RET", "53274": "tte", "53359": "urface", "53568": "bou", "53692": "inse", "53855": "qui", "53992": "alles", "54255": "pts", "54346": "tal", "54591": "constant", "54613": "omm", "54713": "ĠFo", "54777": "bab", "54955": "isin", "54962": "Ġquesti", "55096": "attern", "55437": "wr", "55658": "lace", "55695": "}},", "55784": "brief", "55857": "abo", "56142": "Ġthi", "56147": "oble", "56255": "too", "56465": "tp", "56618": "ĠYo", "56657": "until", "56734": "Ġtimeout", "56885": "Ġspeci", "56909": "_VALUE", "57001": "Ġsr", "57102": "Running", "57633": "Ġutmost", "57674": "itiv", "57752": "Too", "57963": "tc", "58660": "ouc", "58741": "live", "58897": "Optional", "58903": "tep", "59014": "fal", "59158": "pla", "59208": "above", "59729": "ratio", "59761": "Ġrepo", "59768": "mode", "60096": "essi", "60262": "altern", "60676": "\"}Ċ", "60802": "hyp", "60815": "itin", "60861": "deep", "60950": "Ġsolver", "60953": "rios", "60996": "oce", "61015": "cuts", "61159": "bash", "61237": "fac", "61264": "'l", "61503": "lea", "61509": "cases", "61547": "llo", "61692": "ĠMU", "61725": "creens", "61729": "ETER", "61784": "nv", "62001": "athe", "62054": "ĠRET", "62106": "rw", "62291": "ecu", "62315": "cki", "62326": ">The", "62658": "Tools", "62773": "\"}", "62896": "numbers", "63153": "ARA", "63589": "LU", "63613": "nim", "63842": "sr", "63883": "NAM", "64229": "Ġrigor", "64887": "Ġundis", "64892": "reso", "64906": "urf", "65174": "ĠAbsolute", "65273": "ept", "65352": "lv", "65482": "ensit", "65541": "lp", "65567": "absolute", "65766": "Ġrelentless", "65929": "Ġparamet", "66130": "ogi", "66155": "entin", "66166": "Ot", "66557": "Ġhav", "66562": "xp", "66910": ".\",", "66930": "meter", "67266": "Ġstric", "67286": "xter", "67794": "sol", "68170": "ulti", "68250": "Ġbloc", "68272": "lest", "68518": "undi", "68520": "Done", "68539": "Ru", "68598": "pecified", "68611": "dif", "68704": "terna", "68838": "properties", "68918": "roj", "69094": "tom", "69477": "plac", "69679": "emas", "70061": "imag", "70456": "Ġinvo", "70666": "rath", "70753": "turn", "70962": "]<", "70988": "dent", "71144": "_mode", "71208": "MIT", "71482": "ĠBey", "71815": "wis", "71830": "`s", "71855": "Ġdecomp", "71928": "nin", "72022": "RAM", "72152": "proc", "72246": "lain", "72461": "tool", "72604": "Ġexhaustive", "72707": "said", "72792": "Actual", "72805": "forma", "72837": "rather", "73498": "Actually", "73556": "}<", "73709": "pto", "73771": "Ġerro", "73964": "bj", "74147": "teger", "74366": "ĠMUST", "74641": "against", "74799": "ifie", "75140": "Ġgrep", "75251": "tin", "75281": "sent", "75334": "TRY", "75374": "execute", "75567": "Ġ\"*", "75797": "othes", "75956": "esting", "76040": "cause", "76215": "extern", "76290": "san", "76323": "Ġdocumenting", "76344": "enable", "76693": "Ġaft", "76711": "lles", "76797": "mul", "76930": "eat", "76943": "Yo", "76959": "Ġwi", "76962": "epen", "77069": "dv", "77126": "etu", "77291": "thinking", "77522": "nk", "77560": "enten", "77666": "Reason", "77676": "sce", "77841": "mak", "77914": "amental", "77969": "ĠEf", "78025": "probably", "78135": "dbo", "78291": "lean", "78759": "sid", "78904": "ctl", "79220": "solution", "79248": "axi", "79387": "elp", "79538": "schema", "79539": "resp", "79717": "external", "79788": "mil", "80201": "rk", "80359": "Ġshortcut", "80374": "repository", "80990": "Ġeve", "81123": "Sea", "81401": "heck", "81453": "rati", "81594": "Ġconci", "81787": "nothing", "82161": "cou", "82191": "mini", "82525": "Ġinterm", "82829": "dg", "82832": "eco", "82984": "Ġunde", "83086": "(numbers", "83281": "tant", "83333": "depth", "83495": "Ġrepos", "83671": "cov", "83730": "MU", "83927": "eas", "84169": "mai", "84476": "=\"$", "84498": "following", "84568": "Ġmilli", "84645": "\">{", "85360": "repo", "85461": "maximum", "85653": "quire", "85903": "Replace", "86025": "EFORE", "86068": "Ġsai", "86091": "glob", "86263": "Ġexpr", "86399": "ĠMUS", "86453": "fine", "86512": "reason", "86594": ">[", "86614": "lut", "86644": "tools", "86663": "imu", "86672": "meters", "87117": "Ġabsolut", "87372": "multiple", "87691": ".Con", "87928": "\"},", "88031": "Assistant", "88045": "erat", "88594": "inside", "89017": "sym", "89215": "/to", "89388": "MET", "89583": "minimum", "89606": "erme", "89944": "trigger", "91153": "oug", "91719": "cum", "92168": "aust", "92843": "compl", "92998": "resolve", "93227": "odin", "93262": "rope", "94107": "angl", "94242": "_mod", "94464": "Ġscreenshot", "94471": "Ġresol", "94506": "surface", "94508": "`.Ċ", "94638": "Ġpotenti", "94710": "independent", "94747": "ensure", "94891": "Fo", "95176": "ymp", "95647": "potential", "95977": "voke", "97206": "Ġstres", "97279": "pone", "97436": "Ġtho", "97819": "bera", "98075": "tole", "98189": "thi", "98260": ".rs", "98919": "Ġcomprehensively", "99263": "tol", "99278": "proble", "99321": "nden", "99362": "ponen", "99509": "Ġalte", "99822": "_ms", "100063": "Ġtol", "100299": "\"S", "100408": "eck", "100563": "tur", "100720": "<th", "100873": "thor", "100941": "onin", "101451": "coding", "101818": "Ġadversarial", "101852": "Ġarra", "102364": "Absolute", "102381": "stress", "102545": "dependent", "102634": "arrays", "102698": "onent", "102810": "Ġshortcuts", "103381": "dire", "103642": "witch", "103757": "rema", "103787": ">T", "103809": "gere", "103946": "uire", "103960": ";<", "104045": "utm", "104072": "ensively", "104618": "Ġscree", "104934": "liber", "105726": "isecond", "105966": "/th", "106705": "igor", "106850": "enarios", "107029": "Ġdecompose", "107267": "gain", "107367": "trace", "107443": "remain", "107603": "ĠAva", "107701": "strict", "108161": "oolean", "108363": "Ġexter", "108526": "`.ĊĊ", "108532": "tted", "108608": "paths", "109720": "native", "109741": "proper", "110102": "efa", "110269": "\"s", "110468": "prehensive", "110771": "xh", "110864": "/net", "110933": "wit", "111074": "erti", "111618": "Ġdeliberation", "112042": "_call", "112107": "olut", "112437": "Ġtha", "112934": "Ġuncomp", "113388": "usti", "113398": "unti", "114018": "solve", "114364": "Ġhypo", "114867": "Ġunchecked", "115009": "insen", "115061": "ultiple", "115078": "ectl", "115115": "considered", "115851": "idered", "116255": "Ġchan", "116467": "cked", "116523": ">C", "116946": "verified", "117072": "thin", "117502": "Ġoutp", "118033": "pti", "118170": "sit", "118307": "LIM", "118692": ">$", "119128": "creenshot", "119443": "chang", "119907": "ĠBEFORE", "120260": "egi", "120457": "sar", "120500": "alte", "120541": "alternative", "121024": "quired", "121336": "sens", "121559": "seek", "121678": "}}}ĊĊ", "122049": "unds", "122083": "onti", "122370": "othesis", "122843": "touch", "123452": "Checking", "124112": "...</", "124444": "<t", "124515": "logic", "124913": "Ġques", "125001": "sand", "125627": "vely", "125750": "Ġbum", "126103": "gic", "126224": "cts", "126271": "yin", "126476": "bounds", "126810": "spo", "126997": "pli", "127030": "aila", "127119": "Ġsce", "127372": "overe", "127468": "Ġrigorously", "127691": "Ġsolu", "128803": "<｜User｜>", "128804": "<｜Assistant｜>", "128821": "<think>", "128822": "</think>", "128825": "｜DSML｜", "129264": "<｜deepseek_image｜>"}, "merges": ["Ġ t", "Ġ a", "i n", "h e", "e r", "o n", "r e", "e n", "a t", "Ġ s", "Ġt he", "Ċ Ċ", "o r", "e s", "Ġ c", "a n", "Ġ o", "i s", "i t", "Ġ p", "Ġ w", "a l", "Ġ d", "e d", "Ġ f", "a r", "in g", "n d", "Ġ b", "Ġ m", "o u", "Ġo f", "Ġ in", "i on", "i c", "â Ģ", "l e", "Ġt o", "Ġa nd", "a s", "r o", "en t", "Ġ h", "c t", "Ġ e", "Ġ n", "Ġ l", "Ġt h", "o m", "e l", "s t", "e t", "i l", "Ġ re", "Ġ S", "i m", "i d", "Ġ T", "o l", "u t", "Ġ A", "Ġ g", "r a", ". ĊĊ", "i v", "at ion", "Ġ (", "Ġ is", "u r", "o t", "c h", "u s", "i g", "c e", "a m", "o w", "a d", "Ġf or", "u l", "Ġb e", "l y", "Ġs t", "u n", "# #", "Ġ M", "Ġ v", "o s", "e m", "Ġ y", "a y", "er s", "i r", "Ġd e", "i f", "u m", "Ġth at", "2 0", "Ġc on", "it h", "o d", "t er", "q u", "Ġ B", "a g", "Ġa n", "Ġa s", "Ġp ro", "he r", "es t", "Ġw ith", "Ġa l", "a b", ". .", "v e", "v er", "Ġ R", "at e", "is t", "Ġ it", "Ġ =", "a c", "Ġy ou", "re s", "Ġ E", "Ġ F", "es s", "e ct", "an d", "Ġw h", "r i", "t h", "Ġc om", "s e", "Ġ he", "Ġ or", "Ġe x", "il l", "o p", "Ġa re", "an t", "a k", "or t", "o c", "Ġs e", "m ent", "h t", "Ġ r", "ro m", "Ġs u", "a in", "i e", "0 0", "iv e", "Ġb y", "l d", "i es", "o g", "ar t", "Ġn e", "en d", "p t", "Ġ le", "n t", "u re", "Ġh a", "i al", "Ġc h", "Ġf rom", "p l", "Ġ u", "Ġ us", "ou r", "Ġ J", "1 0", "Ġn ot", "an g", "p e", "in e", "ig ht", "Ġ -", "Ġth is", "p er", "Ġs h", "el l", "Ġ en", "al l", "b er", "Ġ \"", "u st", "Ġc an", "a re", "t e", "i a", "o st", ". Ċ", "ou t", "ul t", "Ġha ve", "Ġ un", "u e", "ag e", "f f", "r ou", "as s", "a p", "ou ld", "i p", "o k", "an s", "i k", "Ġa b", "or m", "Ġ qu", "Ġw or", "as t", "in t", "a ct", "in d", "Ġ âĢ", "d u", "Ġa d", "T he", "Ġcom p", "Ġre s", "en ce", "ab le", "Ġ {", "id e", "ou s", "i b", "i re", "Ġin t", "he n", "am e", "c c", "Ġd o", "t her", "g e", "e ar", "Ġal l", "Ġp er", "er e", "im e", "a v", "f er", "as e", "r u", "c on", "an ce", "' s", "1 2", "r y", "ent s", ") ,", "e p", "o v", "l ic", "Ġ [", "en s", "g h", "res s", "Ġyou r", "Ġp r", "Ġa r", "on e", "20 0", "f orm", "## #", "Ġo ut", "n e", "a ce", "i le", "k s", "u al", "Ġ <", "s o", "Ġs a", "x t", "Ġs o", "Ġt r", "it e", "Ġl a", "ur n", "Ġp re", "v el", "l l", "os e", "or y", "ou nt", "ak e", "Ġs p", "a il", "el y", "Ġp art", "Ġ Y", "c i", "c es", "at h", "re e", "Ġo ther", "Ġin ter", "Ġ ro", "y s", "o b", "1 6", "Ġe v", "d e", "Ġu nd", "ou nd", "e w", "Ġa g", "p le", "j ect", "âĢ Ķ", "ra m", "ol l", "c om", "w e", "r ic", "c re", ": ĊĊ", "r ing", "n g", "er t", "c k", "er m", "a us", "Ġ i", "Ġit s", "re at", "Ġt ime", "w o", "ay s", "> Ċ", "f t", "Ġt ra", "Ġcom m", "r it", "c he", "ar i", "he re", "on t", "ik e", "on s", "Ġint o", "3 0", "ir st", "pe c", "Ġa cc", "Ġd if", "Ġre t", "s s", "Ġp e", "Ġth an", "al ly", "on d", "u nd", "c ess", "Ġwor k", "Ġan y", "Ġn o", "Ġcon s", "Ġo b", "Ġin d", "Ġas s", "ol d", "Ġre l", ": Ċ", "in k", "p s", "l es", "re d", "Ġp o", "Ġv al", "Ġ ra", "Ġfor m", "ul ar", "od e", "h at", "n ing", "t y", "ig h", "i ed", "i o", "Ġb l", "Ġund er", "Ġex p", "er y", "Ġc o", "Ġs he", "is e", "Ġt wo", "e f", "? ĊĊ", "f ter", "at ive", "Ġre g", "p r", "Ġf irst", "Ġm od", "u g", "ang e", "Ġin v", "Ġl ike", "= \"", "b le", "rou gh", "e x", "al s", "p ro", "Ġd i", "it s", "aus e", "ter n", "00 0", "a x", "Ġ â", "5 0", "ut ion", "Ġs c", "Ġs et", "Ġus e", "Ġde f", "Ġret urn", "oc k", "Ġsa id", "e c", "o ve", "Ġp ar", "it t", "ot h", "Ġa c", "S t", "Ġf un", "ver y", "p ut", "e g", "ul l", "i x", "t en", "e y", "Ġs ur", "ic t", "u ch", "ou gh", "u es", "or k", "Ġres p", "Ġre m", "1 00", "o ol", "e k", "Ġ ent", "Ġm ost", "Ġw here", "y m", "s p", "Ġs pec", "t o", "u c", "ar ch", "oll ow", "Ġhe l", "in s", "con d", "d er", "Ġqu e", "Ġsh ould", "in al", "Ġd el", "t t", "Ġa fter", "Ġs m", "Ġt y", "p os", "Ġcon st", "Ġf ollow", "l ed", ".. .", "r an", "an y", "Ġm ake", "T h", "id er", "Ġ ed", "Ġde c", "Ġp at", "E R", "t s", "Ġs ol", "f l", "ot her", "er n", "Ġb u", "Ġst r", "c o", "Ġex t", "Ġhel p", "Ġpro cess", "t ing", "< /", "e ver", "s w", "Ġe very", "a u", "\" ,", "iv es", "ri pt", "le t", "} Ċ", "ut e", "p ar", "ion al", "t he", "m s", "in ed", "Ġag ain", "s c", "v ers", "a ve", "Ġ er", "as h", "Ġv ery", "ou n", "ent ial", "ra y", "o x", "v al", "ĠF or", "ire ct", "Ġc all", "at her", "m in", "b ers", "Ġb oth", "O N", "he s", "as es", "Ġval ue", "Ġin s", "Ġre p", "ect ed", "an c", "g g", "ire d", "ĠY ou", "g ht", "Ġqu est", "o le", "Ġf in", "Ġde p", "m e", "in a", "re t", "I t", "3 2", "Ġth ink", "ual ly", "v ing", "ĠâĢ Ķ", ". \"", "o f", "Ġg r", "m an", "as on", "R e", "r ation", "Ġpro ble", "l i", "a i", "o ot", "e e", "f or", "Ġcons ider", "m a", "t ain", "Ġm ult", "A R", "Ġf il", "c ript", "Ġp ass", "it ive", "Ġc al", "b e", "at t", "ot e", "Ġn ame", "cc ess", "Ġl ast", "v es", "sw er", "Ġw rit", "Ġc ase", "- t", "} ĊĊ", "um ent", "b s", "Ġp ot", "et er", "iv ely", "Ġsm all", "if ied", "- d", "n al", "C h", "s on", "k e", "Ġad v", "l ess", "S T", "Ġm il", "r or", "Ġfollow ing", "m ed", "O R", "am ent", "st r", "g en", "Ġs pe", "t a", "A L", "ra c", "ert ain", "g er", "ĠT o", "Ġm ill", "Ġty pe", "0 1", "Ġd irect", "Ġb o", "ain s", "0 5", "um ber", "A n", "ro p", "Ġch ang", "f ace", "E x", "g o", "ress ion", "n a", "Ġto o", "Ġ< /", "un e", "w ork", "d en", "Ġun t", "? Ċ", "Ġch ange", "u le", "Ġagain st", "Ġl im", "Ġpro ject", "Ġv er", "a f", "Ġg re", "b y", "p on", "re qu", "ne w", "n ame", "Ġp a", "ĠB e", "he m", "n ot", "Ġob ject", "ĠS ch", "Ġl og", "C on", "n y", "c er", "s er", "Ġty p", "ol ution", "ent ly", "pl ic", "y pe", "Ġwor ks", "op e", "che s", "A s", "I T", "Ġle ft", "] ,", "s h", "um e", "t r", "T o", "ail able", "o ver", "th ing", "W hat", "ĠA b", "r m", "y p", "g a", "us e", "Ġsh ort", "en c", "Ġn a", "Ġv e", "Ġin te", "Ġst ep", "r ite", "Ġn et", "Ġs i", "Ġs w", "4 2", "ab ly", "Ġw he", "re g", "it or", "l er", "Ġacc ess", "Ġpot ential", "s et", "Ġan swer", "Ġtr ue", "Ġproble m", "0 7", "\" >", "Ġl o", "qu e", "ri e", "Ġan g", "\" :", "com m", "al se", "0 6", "E T", "Ġ ut", "e xt", "Ġquest ion", "Ġst ring", "Ġf r", "ear ch", "Ġen s", "ar a", "de f", "a ult", "le te", "Y ou", "Ġc ertain", "is c", "it es", "ric t", "er ed", "Ġunt il", "Ġs ym", "Ġpro b", "Ġar r", "St ring", ". C", "ip le", "b o", "Ġl ik", "p re", "con t", "Ġab ove", "n o", "ar r", "I f", "Ġpar a", "h o", "ĠS c", "in ter", "Ġ `", "Ġp ath", "Ġd oc", "st e", "Ġc aus", "5 00", "b r", "cript ion", "Ġresp ons", "Ġf und", "b l", "th is", "N A", "um p", "pt ion", "re m", "\" >Ċ", "R E", "} }", "Ġt w", "U S", "t ies", "F or", "Ġst re", "Ġcon c", "C ont", "ep end", "( n", "ret urn", "at ter", "Ġab s", "con st", "Ġus er", "Ġm ax", "Ġre ason", "ch an", "un t", "s ide", "d o", "Ġl as", "h a", "m ost", "al u", "Ġf inal", "i os", "Ġto ol", "Ġa ge", "Ġst e", "en ing", "A M", "on se", "is ing", "er a", "ul a", "ound s", "op t", "pl ace", "Ġf ile", "he l", "Ġresp onse", "i ber", "p o", "if f", "Ġc e", "w h", "it ing", "W h", "im um", "ar c", "Ġin de", "nd er", "S e", "Ġcomp on", "re l", "Ġsur face", "itt ed", "et ers", "Ġd ire", "st ring", "Ġcomp let", "- h", "med i", "it ch", "p ose", "Ġe ver", "l a", "Ġr ather", "m it", "Ġpar am", "le ft", "Ġc ases", "ty pe", "Ġs y", "d a", "ie f", "Ġdef in", "Ġsol ution", "Ġexp ress", "( t", "o ff", "al t", "> ĊĊ", "Ġm o", "r t", "ent al", "co ver", "Ġc ause", "w here", "ly ing", "Ġro ot", "h ing", "p en", "Ġtyp es", "op er", "k i", "1 20", "l og", "um b", "Ġm i", "m et", "m en", "Ġdoc ument", "_ c", "ect s", "l o", "in i", "Ġwrit ing", "Ġmult iple", "Ġl ive", "est ion", "u i", "il es", "Ġf a", "Ġs ite", "ri x", "re f", "Ġf alse", "[ ]", "Ġconsider ed", "Ġw rite", "c al", "Ġr at", "m od", "Ġm a", "g or", "f o", "v a", "val ue", "u a", "Ġde ep", "Ġent ire", "ens ive", "i at", "Ġout put", "I M", "Ġens ure", "us er", "ac c", "Ġs cre", "av ing", "b ject", "Ġse arch", "f rom", "Ġex ec", "ok e", "l im", "ess ion", "Ġreg ul", "> <", "â ĸ", "Ġs ch", "par am", "Ġst ress", "ri al", "Ġcomp lete", "Ġar ray", "d ing", "_ f", "Ġbl ock", "Ġer ror", "- n", "Ġ q", "b a", "epend ent", "j e", "ch ange", "x im", "Ġmult i", "s um", "hen s", "ou l", "g l", "or ks", "Ġnot hing", "tern al", "Ġb r", "n i", "Ġexp ression", "m p", "on al", "Ġs che", "p art", "Ġt ou", "Ġreg ular", "_ m", "n et", "ï ½", "O L", "qu est", "f ort", "Ġh y", "' ll", "sc ript", "Ġal tern", "r at", "p i", "e qu", "un ch", "Ġpre fer", "m m", "pon se", "d is", "p at", "Ġcomm and", "Ġp as", "w ith", "ari o", "it te", "Ġl ives", "ous ly", "Ġprob ably", "Ġcom pl", "Ġconst ant", "p a", "eg in", "ter m", "l t", "ri a", "Ġex act", "l en", "d es", "Ġins ide", "h i", "o o", "e v", "Ġst op", "m at", "Ġdef ined", "r ig", "00 1", "Ġlim it", "al le", "Ġc a", "ed ia", "pon ent", "se e", "c a", "Ġdirect ly", "ex p", "v o", "Ġo u", "Ġrem ain", "Ġass um", "Ġc as", "Ġtool s", "Ġst ri", "Ġer r", "at i", "A b", "U ser", "m itted", "T O", "s es", "Ġt im", "ang le", "Ġh yp", "ent e", "en a", "on a", "Ġthink ing", "ri ef", "r c", "w ise", "} ,", "f e", "Ġcomp re", "per t", "un c", "Ġa f", "m o", "B e", "Ġsym pt", "m i", "it o", "Ġcompon ents", "it ory", "R ep", "> </", "hes is", "b ox", "v i", "ar ray", "M L", "ist a", "Ġal t", "w er", "S c", "Ġre le", "un n", "er ation", "Ġcompon ent", "d s", "w orks", "con s", "com p", "se c", "R A", "s ch", "An swer", ".. .Ċ", "end e", "Ġrem ains", "t est", "ri p", "D o", "x i", "im a", "U s", "f ile", "Ġmax imum", "Ġind ependent", "Ġparam eters", "eg er", "b egin", "et e", "g u", "t ime", "Ġse a", "E F", "er r", "Ġch ance", "m as", "S et", "f s", "Ġobject s", "em a", "Ġabs ol", "s i", "Ġcompre hens", "r s", "ic i", "t ers", "y ing", "Ġtou ch", "l ike", "od ing", "k in", "Ġdif f", "Ġst o", "Ġform at", "Ġc ert", "ĠA v", "t es", "a ft", "ol ve", "Ġsc en", "Ġs ites", "Ġsw itch", "h an", "s l", "res ult", "m ax", "ro ot", "yp es", "ink ing", "n s", "m u", "Ġf ol", "t re", "le m", "ar ia", "Ġaltern ative", "Ġfund ament", "g i", "g in", "cont ent", "c an", "Ġdep th", "th at", "Ġval u", "re ct", "T ER", "Ġex ternal", "t i", "Ġscre en", "Ġed ge", "Ġsol ve", "ĠE ff", "Ġ ri", "/ t", "che ck", "il a", "Ġl i", "ram e", "Ġang le", "l as", "ole an", "oc ument", "A ct", "o j", "Ġb rief", "er ror", "s en", "p ass", "A ss", "u est", "p ath", "c is", "k ing", "ab led", "t ed", "n ce", "und er", "in st", "n en", "n um", "f ol", "l ast", "am eter", "h av", "P A", "Ġun c", "i ate", "im age", "M E", "Ġmult ip", "rit ing", "ab s", "val u", "ob ject", "Ġreturn s", "ic it", "oth ing", "- de", "du le", "u gh", "Ġs it", "c ount", "en u", "Ġcomprehens ive", "D S", "Ġch ain", "l ock", "Ġhyp ot", "ut o", "Ġs and", "Ġal ter", "Ġcall s", "ble m", "Ġparam eter", "Ġv a", "ist an", "s in", "ag en", "se cond", "[ \"", "l s", "Ġle aving", "def ine", "Ġag ent", "out put", "f a", "l u", "N e", "Ġo t", "p es", "um bers", "T R", "ot he", "re c", "Ġfundament al", "ra ce", "Ġan s", "Ġsh o", "Ġs an", "C o", "Ġdef ine", "s m", "at iv", "n am", "Ġper m", "d b", "tr ue", "Ġre ject", "u ing", "w in", "h y", "Ġind epend", "s u", "d i", "c ase", "ple te", "U E", "m al", "it i", "os itory", "w i", "C he", "is i", "et ry", "v in", "qu es", "es is", "ut s", "Ġspec ified", "form at", "Ġc er", "per ties", "Ġmod ule", "urn s", "Ġth in", "Ġb ool", "p ons", "g ent", "g r", "ĠR E", "S earch", "re en", "or ough", "Ġs rc", "Ġen able", "all s", "s is", "un ning", "_ in", "/ n", "y ou", "s a", "m ain", "O ther", "on i", "ĠS che", "f irst", "Ex p", "D on", "ra ys", "Ġr ig", "ri o", "r ance", "ool s", "t il", "Ġl iv", "ep s", "S O", "F in", "qu ir", "cre en", "Ġto ler", "l ik", "in u", "ent a", "Ġunder lying", "\" ]", "e le", "Ġn am", "el en", "ut ely", "ag a", "Ġf ro", "or o", "Ex pl", "ed ge", ". </", "ari os", "b u", "pon ents", "AL U", "Ġabsol ute", "Ġlog ic", "A c", "Ġm u", "se arch", "n umber", "y o", "Ġshe ll", "Ġbo olean", "m and", "Ġst rict", "Ġshe l", "t an", "che m", "ver e", "cond s", "l ib", "ow ing", "w ing", "ad v", "s he", "Ġform a", "U se", "r if", "f in", "F ind", "def ault", "ist ant", "Ġf i", "medi ate", "Ġth orough", "Che ck", "ent i", "Ġf u", "re p", "res ponse", "Ġob j", "a fter", "c u", "S ON", "Ġsc r", "Ġ[ ]", "r in", "Ġmulti pl", "ig o", "in te", "e en", "ha ust", "Ġch a", "pro cess", "n u", "Ġd ir", "M I", "Ġmax im", "n ull", "th s", "_ i", "t op", "ct u", "ch a", "Ġper mit", "bl ock", "t ion", "m ult", "Ġf o", "rou s", "el i", "f il", "Ġabsol utely", "k ed", "Ġhypot hesis", "ac cess", "n ed", "or ous", "Ġex haust", "p u", "i pt", "end en", "c ap", "_ L", "St r", "m b", "ob j", "re a", "us al", "ed it", "ĠAv ailable", "e a", "g le", "m os", "S ch", "Ġcomp le", "pos itory", "d el", "am eters", "b led", "Ġang les", "Ġscen ario", "_ re", "ol s", "ty pes", "ject s", "h or", "hel p", "d ir", "m itt", "F O", "c r", "T E", "A v", "_f ile", "h ort", "re q", "im i", "E ff", "V A", "Ġed it", "he ll", "l ar", "Ġpro c", "l ow", "ch ain", "t ra", "t u", "Ġtra ce", "ou ch", "Ġres olve", "Ġb ot", "f alse", "che ma", "c ut", "plic it", "Ġsmall est", "S M", "p end", "ans wer", "mod ule", "qu estion", "d am", "script ion", "Ġc oding", "l oc", "eg u", "Ġinter mediate", "um en", "ro b", "\" The", "Ġassum ption", "Ġ[ \"", "b ool", "Ġt i", "_ N", "OR E", "n n", "Ġpath s", "reg ular", "des cription", "_ V", "ment al", "pre hens", "ĠA bs", "st ep", "os i", "Ġdel iber", "Ġsw it", ". r", "ey ond", "O p", "f r", "t ter", "ep th", "Ġindepend ently", "t w", "Ġm ul", "a id", "Ġscen arios", "B E", "t or", "ond s", "ro c", "e j", "on ing", "n ab", "am en", "ert a", "Ġen abled", "p ing", "Ġexec ute", "ut i", "l ab", "ĠB E", "med ia", "Ġpro ces", "b as", "om i", "requ ire", "st a", "(n um", "Ġreason ing", "Ġc od", "p ress", "U ST", "Ġt ru", "ol er", "Ġreject ed", "de c", "NA ME", "f i", "e q", "t wo", "int o", "Ġper mitted", "sh ould", "Ġm os", "ir s", "Ġde com", "ef ined", "h ot", "_ r", "ol ver", "Ġtoler ance", "Ġw r", "ise conds", "ins i", "ol u", "per m", "def ined", "{ \"", "com ponents", "f un", "b ot", "s rc", "requ ired", "Ġad vers", "} </", "ans w", "Ġf al", "Ġbrief ly", "st an", "e ft", "ang les", "w riting", "if i", "y on", "m ake", "nd e", ".C ont", "es c", "h ave", "pert i", "es p", "w rite", "p ot", "{ }", "s pec", "st o", "ob a", "Ġ{ }", "ar am", "/ re", "f ly", "Ġre pository", "c all", "sh ot", "ĠJ SON", "s ite", "b eg", "e h", "pro p", "iv el", "sm all", "b ound", "Ġw o", "t ry", "m ill", "ĠT ools", "Ġbl o", "h is", "F i", "h ou", "Ġsur f", "l iv", "return s", "d in", "nt e", "s ur", "ag ent", "O pt", "pro ject", "h ai", "ens itive", "ï½ ľ", "er i", "ĠT ool", "d ep", "AM E", "comm and", "g re", "/ .", "th a", "se a", "G reat", "Ġ{ \"", "Ġw it", "ab l", "iff s", "second s", "und a", "re as", "c en", "exp ression", "und e", "R un", "p res", "O ption", "ind e", "s che", "ol ute", "- te", "Ġstrict ly", "st i", "/ r", "ĠB eyond", "Ġpot ent", "-t est", "im it", "st re", "} }Ċ", "es i", "os it", "O O", "us a", "d oc", "p in", "ib e", "sh ort", "Ġscre ens", "f u", "ed i", "en i", "r r", "_ res", "Ġmill iseconds", "h s", "S chema", "> {", "Ġar rays", "ple t", "h aus", ". <", "od i", "J S", "Ġver ified", "Ġun ch", "he c", "G r", "um ption", "b oth", "y our", "} }ĊĊ", "u in", "av i", "Ġex tern", "s ing", "ul d", "l is", "Ġexec ut", "cons ider", "d ocument", "ĠTo o", "nt en", "ig ger", "e an", "h in", "end ent", "Ġinv oke", "L I", "J SON", "th an", "d irect", "_ NAME", "r ror", "Ġpre f", "r f", "l le", "m ag", "ET E", "oll o", "ex ec", "par a", "le ans", "Cont in", "ex pr", "ion a", "test ing", "y i", "st op", "p rom", "ĠJ S", "c it", "bo olean", "at io", "om p", "N ever", "r n", "Ġsympt om", "` .", "R Y", "e very", "h ang", "Ġcaus al", "od u", "Ġsche ma", "th ink", "s creen", "es cription", "x e", "Ġswit ches", "Ġf als", "Ġ\" <", "on te", "T i", ".. Ċ", "d isc", "ig g", "ot en", "A bs", "n at", "pl ain", "ll i", "AL UE", "Ġm ak", "pro b", "inte ger", "lim it", "Ġrig orous", "Ġb ump", "t ri", "in v", "is co", "con c", "Ġcaus a", "S che", "inte g", "res pons", "est i", "lim its", "p as", "c as", "w or", "> )", "ht e", "Ġprob l", "nd a", "ag ain", "es o", "on en", "G re", "param eter", "f inal", "m ma", "_ image", "}} }", "ens i", "cover ed", "Ġinter medi", "st ant", "exp ress", "s al", "ty p", "ill i", "pos it", "T ool", "ow i", "object s", "Ġang l", "r st", "d iff", "Av ailable", "ck e", "u ir", "e o", "> .", "s pe", "t im", "pat tern", "\" What", "oler ance", "ob l", "Ġth or", "f iles", "Ġf ir", "er l", "t ip", "d it", "Ġcons id", "m age", "it ches", "av in", "\" ],", "An s", "f ollow", "m is", "i pl", "(n umber", "as o", "f und", "ar ial", "_ result", "param eters", "x a", "Ġex h", "c od", "n c", "ĠSche ma", "P AR", "al ter", "Ġexp res", "sw itch", "en um", "O OL", "re fer", "r l", "en ario", "Ġconc ise", "des c", "check ed", "ro bl", "ath s", "et ur", "; </", "pro blem", "f te", "ent ing", "gg er", "sc r", "s y", "ink i", "] }", "c ertain", "Ġy o", "> \"", "a ul", "com ponent", "mult i", "Ġhypot hes", "r ue", "te g", "ym pt", "ol utely", "ef e", "n ar", "she ll", "V AL", "t l", "Ġcomm a", "t m", "* .", "com plete", "ject ed", "F OR", "ern a", "on c", "Ġrel ent", "b ly", "t el", "ent ence", "m all", "at te", "ar ra", "aus al", "B eyond", "c ert", "d ia", "R ET", "t te", "ur face", "b ou", "in se", "qu i", "all es", "pt s", "t al", "const ant", "om m", "ĠF o", "b ab", "is in", "Ġquest i", "at tern", "w r", "l ace", "}} ,", "b rief", "ab o", "Ġth i", "ob le", "to o", "t p", "ĠY o", "unt il", "Ġtime out", "Ġspe ci", "_V ALUE", "Ġs r", "R unning", "Ġut most", "it iv", "To o", "t c", "ou c", "l ive", "Opt ional", "te p", "f al", "pl a", "ab ove", "rat io", "Ġrep o", "m ode", "ess i", "al tern", "\" }Ċ", "h yp", "it in", "de ep", "Ġsol ver", "ri os", "o ce", "c uts", "b ash", "f ac", "' l", "le a", "c ases", "ll o", "ĠM U", "cre ens", "ET ER", "n v", "at he", "ĠR ET", "r w", "ec u", "ck i", "> The", "T ools", "\" }", "num bers", "AR A", "L U", "n im", "s r", "NA M", "Ġrig or", "Ġund is", "res o", "ur f", "ĠAbs olute", "e pt", "l v", "ens it", "l p", "abs olute", "Ġrelent less", "Ġparam et", "og i", "ent in", "O t", "Ġha v", "x p", ". \",", "m eter", "Ġst ric", "x ter", "s ol", "ult i", "Ġbl oc", "l est", "und i", "D one", "R u", "pec ified", "d if", "tern a", "pro perties", "ro j", "t om", "pl ac", "em as", "im ag", "Ġinv o", "r ath", "t urn", "] <", "d ent", "_m ode", "M IT", "ĠB ey", "w is", "` s", "Ġde comp", "n in", "R AM", "pro c", "l ain", "t ool", "Ġexhaust ive", "sa id", "Act ual", "form a", "r ather", "Act ually", "} <", "pt o", "Ġer ro", "b j", "te ger", "ĠM UST", "again st", "if ie", "Ġgre p", "t in", "s ent", "TR Y", "exec ute", "Ġ\" *", "ot hes", "est ing", "c ause", "ex tern", "s an", "Ġdocument ing", "en able", "Ġa ft", "ll es", "m ul", "e at", "Y o", "Ġw i", "ep en", "d v", "et u", "th inking", "n k", "ent en", "Re ason", "s ce", "m ak", "ament al", "ĠE f", "prob ably", "d bo", "le an", "s id", "ct l", "s olution", "ax i", "el p", "s chema", "res p", "ex ternal", "m il", "r k", "Ġshort cut", "re pository", "Ġe ve", "Se a", "he ck", "rat i", "Ġcon ci", "n othing", "c ou", "min i", "Ġinter m", "d g", "ec o", "Ġund e", "(n umbers", "t ant", "d epth", "Ġre pos", "c ov", "M U", "e as", "m ai", "=\" $", "follow ing", "Ġmill i", "\"> {", "re po", "max imum", "qu ire", "Re place", "EF ORE", "Ġsa i", "gl ob", "Ġexp r", "ĠM US", "f ine", "re ason", "> [", "l ut", "t ools", "im u", "m eters", "Ġabsol ut", "mult iple", ". Con", "\" },", "Ass istant", "er at", "ins ide", "s ym", "/ to", "M ET", "min imum", "erm e", "tr igger", "ou g", "c um", "a ust", "com pl", "res olve", "od in", "ro pe", "ang l", "_ mod", "Ġscreens hot", "Ġres ol", "sur face", "` .Ċ", "Ġpot enti", "ind ependent", "ens ure", "F o", "ym p", "pot ential", "v oke", "Ġst res", "p one", "Ġth o", "ber a", "to le", "th i", ". rs", "Ġcomprehens ively", "t ol", "pro ble", "nd en", "pon en", "Ġal te", "_ ms", "Ġto l", "\" S", "e ck", "t ur", "< th", "th or", "on in", "c oding", "Ġadvers arial", "Ġar ra", "Abs olute", "st ress", "d ependent", "ar rays", "on ent", "Ġshort cuts", "d ire", "w itch", "re ma", "> T", "g ere", "u ire", "; <", "ut m", "ens ively", "Ġsc ree", "li ber", "ise cond", "/ th", "ig or", "en arios", "Ġdecom pose", "g ain", "t race", "rem ain", "ĠA va", "st rict", "o olean", "Ġex ter", "` .ĊĊ", "tt ed", "path s", "n ative", "pro per", "ef a", "\" s", "prehens ive", "x h", "/ net", "w it", "ert i", "Ġdeliber ation", "_c all", "ol ut", "Ġth a", "Ġun comp", "ust i", "unt i", "s olve", "Ġhyp o", "Ġun checked", "ins en", "ult iple", "ect l", "consider ed", "ider ed", "Ġch an", "ck ed", "> C", "ver ified", "th in", "Ġout p", "pt i", "s it", "L IM", "> $", "creens hot", "ch ang", "ĠB EFORE", "eg i", "s ar", "al te", "altern ative", "qu ired", "s ens", "se ek", "}} }ĊĊ", "und s", "ont i", "ot hesis", "t ouch", "Check ing", "... </", "< t", "log ic", "Ġqu es", "s and", "vel y", "Ġb um", "g ic", "ct s", "y in", "b ounds", "sp o", "pl i", "ail a", "Ġs ce", "over e", "Ġrigor ously", "Ġsol u"]}
